, 106010
. 99085
a 75857
i 70789
e 68506
di 60141
o 58536
che 49919
d@@ 37044
s@@ 36918
m@@ 33405
la 33351
c@@ 30410
è 29014
in@@ 28972
t@@ 28759
are 27795
i@@ 27595
r@@ 26304
un 26263
p@@ 25333
il 25139
v@@ 25124
in 24620
di@@ 24397
b@@ 23912
f@@ 23904
er@@ 23682
g@@ 23345
ar@@ 21940
n@@ 20389
u@@ 20288
to 20267
per 20014
an@@ 19498
av@@ 19355
or@@ 19067
ato 18487
tr@@ 18129
le 17898
at@@ 17542
una 17537
on@@ 17435
al@@ 16773
ic@@ 16489
os@@ 15935
l@@ 15854
non 15766
ano 15761
im@@ 15659
es@@ 15409
e@@ 14979
ere 14900
&quot; 14717
si 14490
S@@ 13899
st@@ 13898
l&apos; 13794
pr@@ 13741
ia 13276
io 13220
E 13013
lo 12884
as@@ 12876
en@@ 12833
am@@ 12760
sono 12691
un@@ 12618
te 12550
ci@@ 12453
ol@@ 12259
da 12105
de@@ 12048
a@@ 12032
C@@ 12024
ta 11909
re@@ 11860
is@@ 11586
qu@@ 11453
ess@@ 11387
ale 11285
&apos; 11236
em@@ 11108
con@@ 10938
o@@ 10933
pi@@ 10711
ti 10611
se 10487
su@@ 10146
et@@ 10000
oc@@ 9798
el@@ 9729
it@@ 9670
om@@ 9595
sc@@ 9555
us@@ 9532
del 9449
più 9392
z@@ 9349
come 9303
ac@@ 9246
con 9185
ot@@ 9160
gi@@ 9158
: 9132
P@@ 8980
? 8886
per@@ 8820
iv@@ 8812
ent@@ 8782
ur@@ 8675
questo 8419
à 8355
ev@@ 8327
so 8313
al 8297
A@@ 8290
pos@@ 8278
ri@@ 8276
ci 8215
ità 8156
ati 8145
ut@@ 8126
gli 8091
ente 8011
ag@@ 7993
par@@ 7856
com@@ 7839
ono 7811
ec@@ 7775
ma 7742
ica 7733
della 7663
li@@ 7536
ap@@ 7393
gr@@ 7196
po 7168
azione 7165
ate 7127
amente 6946
og@@ 6928
cosa 6898
amo 6885
ata 6823
op@@ 6795
ett@@ 6784
att@@ 6770
ad@@ 6717
ore 6692
D@@ 6680
chi@@ 6641
ando 6632
col@@ 6555
bi@@ 6514
ha 6481
mi 6402
do 6394
no 6371
ch@@ 6337
vi@@ 6316
L@@ 6312
M@@ 6311
az@@ 6294
si@@ 6272
ie 6242
ov@@ 6060
ter@@ 6047
and@@ 6039
il@@ 6037
era 6015
enti 6008
li 5843
qual@@ 5803
for@@ 5796
T@@ 5782
ò 5774
cor@@ 5767
alla 5745
altr@@ 5724
enza 5601
um@@ 5601
ab@@ 5566
ico 5564
vol@@ 5476
nel 5472
E@@ 5465
er 5452
anno 5374
se@@ 5366
zione 5328
ori 5299
ero 5283
N@@ 5274
esso 5240
iamo 5199
ali 5187
ete 5094
cre@@ 5080
dei 5073
re 5072
ante 5054
gu@@ 5002
G@@ 4964
ento 4920
ris@@ 4909
nostr@@ 4885
Ma 4864
ig@@ 4855
end@@ 4810
ho 4782
1@@ 4777
B@@ 4739
ist@@ 4738
ai 4720
O@@ 4689
molto 4653
uno 4644
pl@@ 4588
po@@ 4563
cer@@ 4547
delle 4498
ione 4473
essere 4436
ire 4427
questa 4415
h@@ 4368
cui 4343
ed@@ 4305
abbiamo 4298
br@@ 4290
-- 4281
pot@@ 4232
loro 4228
siamo 4219
ra 4198
ass@@ 4177
perché 4148
ne@@ 4135
inter@@ 4122
l 4076
str@@ 4070
anni 4069
anche 4058
ric@@ 4032
Non 4026
ine 4010
fr@@ 4003
pu@@ 4001
persone 3986
sem@@ 3984
ne 3960
igli@@ 3919
ver@@ 3917
0 3897
fare 3880
sp@@ 3852
H@@ 3844
uto 3786
oi 3703
ostr@@ 3688
ura 3687
ici 3682
entr@@ 3681
V@@ 3669
quando 3668
hanno 3666
mo 3659
cos@@ 3629
vi 3619
endo 3611
lav@@ 3564
La 3546
cam@@ 3543
mag@@ 3534
all&apos; 3534
gn@@ 3533
ul@@ 3485
ene 3467
dell&apos; 3451
solo 3431
res@@ 3421
tutto 3413
su 3393
così 3389
Qu@@ 3368
ma@@ 3354
etto 3353
fin@@ 3339
pre@@ 3339
ob@@ 3336
sol@@ 3322
ad 3308
iz@@ 3293
ini 3289
acc@@ 3279
cap@@ 3277
tutti 3274
quel@@ 3266
anti 3263
mondo 3228
ora 3224
ito 3219
ogli@@ 3188
R@@ 3184
un&apos; 3177
fac@@ 3164
id@@ 3156
sul@@ 3143
nel@@ 3135
ce 3130
Il 3104
modo 3103
ant@@ 3093
ion@@ 3062
quello 3061
riv@@ 3041
ina 3026
zz@@ 3017
if@@ 2992
ì 2988
ili@@ 2972
ile 2969
fatto 2955
me@@ 2953
ino 2944
ca 2925
chi 2908
vis@@ 2907
pro@@ 2886
nu@@ 2880
ove 2880
izz@@ 2877
ser@@ 2874
zion@@ 2871
ff@@ 2869
F@@ 2852
sia 2842
cose 2839
pen@@ 2831
pres@@ 2829
2@@ 2825
ved@@ 2801
pens@@ 2800
cont@@ 2783
el 2783
gen@@ 2778
nella 2771
ari 2762
min@@ 2704
anto 2703
tem@@ 2698
eg@@ 2693
c&apos; 2692
I@@ 2686
tra 2682
.@@ 2677
port@@ 2646
ema 2644
ivo 2642
mol@@ 2629
contr@@ 2623
ir@@ 2622
ing@@ 2606
za 2600
mio 2596
eva 2587
questi 2585
ciò 2558
dov@@ 2554
est@@ 2543
sap@@ 2533
olo 2515
agg@@ 2513
queste 2510
Quindi 2510
stato 2502
parte 2495
gior@@ 2490
vel@@ 2474
ast@@ 2474
dis@@ 2454
prima 2451
me 2447
vero 2444
d 2444
cas@@ 2443
noi 2438
ven@@ 2431
ed 2430
zioni 2414
mia 2414
rag@@ 2413
trov@@ 2408
far@@ 2401
sar@@ 2390
vita 2384
ice 2365
enz@@ 2362
que 2362
diver@@ 2358
azioni 2347
le@@ 2339
sta 2337
leg@@ 2335
due 2332
biamo 2313
È 2311
alle 2299
pe@@ 2298
ei 2290
sim@@ 2275
ani 2275
anza 2265
econ@@ 2253
ebbe 2249
uc@@ 2248
int@@ 2246
ole 2246
Questo 2245
In@@ 2243
ava 2236
-@@ 2235
car@@ 2232
vent@@ 2225
qui 2224
men@@ 2201
ti@@ 2187
fa 2182
tut@@ 2176
mer@@ 2161
ogni 2158
bile 2157
amento 2150
almente 2149
co 2139
all@@ 2137
k@@ 2137
amb@@ 2135
tro 2127
iti 2125
ita 2125
prog@@ 2124
propr@@ 2113
Ques@@ 2104
Per@@ 2099
man@@ 2098
oro 2092
mo@@ 2068
pa@@ 2067
9@@ 2053
sist@@ 2046
ott@@ 2031
tim@@ 2027
stor@@ 2026
an 2025
comp@@ 2022
lu@@ 2018
inci@@ 2018
up@@ 2015
u 2007
U@@ 2000
mente 1991
pic@@ 1982
probl@@ 1979
succ@@ 1964
fer@@ 1963
h 1956
bl@@ 1947
real@@ 1939
ese 1938
In 1937
utt@@ 1928
bil@@ 1920
one 1920
Un@@ 1912
ite 1899
stu@@ 1888
A 1877
n 1858
bu@@ 1857
del@@ 1855
on 1852
0@@ 1841
♫ 1841
ve@@ 1840
ché 1830
por@@ 1826
met@@ 1823
- 1819
ard@@ 1779
abil@@ 1771
cl@@ 1767
itt@@ 1756
prim@@ 1746
part@@ 1746
ni 1728
k 1722
tru@@ 1721
des@@ 1712
.. 1709
ra@@ 1669
ome 1661
Al@@ 1660
co@@ 1657
dic@@ 1654
3@@ 1630
ure 1628
ell@@ 1625
t 1618
prov@@ 1617
rit@@ 1613
pol@@ 1609
; 1599
pers@@ 1598
import@@ 1597
cr@@ 1589
cu@@ 1572
oll@@ 1562
so@@ 1554
der@@ 1554
art@@ 1544
fu@@ 1517
St@@ 1517
du@@ 1516
ai@@ 1515
I 1505
over@@ 1501
can@@ 1495
sen@@ 1495
y 1487
mat@@ 1481
fun@@ 1451
possi@@ 1444
spec@@ 1438
soci@@ 1433
J@@ 1412
de 1409
eff@@ 1400
be 1389
sci@@ 1386
bas@@ 1383
ve 1373
5 1371
nolog@@ 1364
te@@ 1345
é 1340
idea 1337
nat@@ 1336
ult@@ 1320
fi@@ 1316
ord@@ 1301
ran@@ 1299
tit@@ 1298
y@@ 1294
form@@ 1291
5@@ 1280
olog@@ 1271
s 1266
ub@@ 1266
indi 1250
peri@@ 1236
diff@@ 1232
fl@@ 1227
TED 1216
go 1211
aut@@ 1208
fat@@ 1178
K@@ 1174
sor@@ 1172
ar 1166
mon@@ 1164
00 1158
or 1152
ive 1143
W@@ 1138
000 1100
eb@@ 1100
and 1088
w@@ 1071
m 1056
od@@ 1046
ill@@ 1022
cc@@ 1013
! 999
ace 987
Ch@@ 985
rel@@ 890
mar@@ 887
les 882
bel@@ 882
af@@ 877
alk 874
he 866
2 865
4@@ 857
ge 850
en 845
ques@@ 842
pt 810
differ@@ 796
% 786
gl@@ 779
8@@ 747
ide@@ 740
ù 731
prob@@ 711
4 710
6@@ 706
of@@ 695
&@@ 689
1 680
us 672
Y@@ 668
p 656
#@@ 644
3 642
g 614
8 600
es 585
rec@@ 582
7@@ 570
’ 567
is 555
ing 550
am 544
ou@@ 539
as 524
no@@ 519
dr@@ 503
w 503
ose 500
7 492
ot 490
ade 487
oo@@ 477
be@@ 466
9 465
som@@ 462
6 460
b 452
j@@ 425
ard 418
est 412
O 405
S 401
x 393
x@@ 373
ave 364
mos@@ 360
ay 355
into 351
sh@@ 348
ta@@ 347
go@@ 339
,@@ 337
D 328
fe@@ 325
ame 314
ess 313
gre@@ 307
th@@ 292
all 291
C 291
it 276
K 274
V 273
L 271
c 262
ow@@ 260
G 259
Z@@ 254
r 254
we@@ 248
T 247
ow 236
f 233
et 225
♪ 225
z 220
ey 219
M 218
sel@@ 210
B 205
he@@ 204
ter 204
” 192
ay@@ 191
do@@ 189
quot@@ 188
ity 172
tw@@ 171
TE@@ 170
“ 164
ex@@ 164
ke 161
– 159
Th@@ 159
at 156
R 153
time 150
X@@ 145
P 143
ill 139
ph@@ 137
ers 135
our@@ 134
to@@ 133
age 130
om 129
use 128
° 128
wit@@ 128
ly 125
ste@@ 125
oun@@ 123
muc@@ 122
ion 116
So 116
/ 113
ch 108
our 106
ic 105
ir 104
ation 103
The 103
v 101
ell 100
H 100
ack 99
ong 98
lif@@ 97
fir@@ 95
ood 95
by 94
F 94
X 93
q 92
of 92
wor@@ 90
ent 89
th 87
ever@@ 86
get 86
W 86
ear@@ 86
Q@@ 86
Wh@@ 82
U 82
ause 81
work 79
ans 78
— 73
ut 73
king 68
up 67
own 67
N 65
my 64
ple 61
é@@ 61
over 60
back 59
ks 59
ld 56
bec@@ 56
ence 56
ant 55
ect@@ 54
ds 53
the 53
than 53
ast 48
st 47
$ 46
ther 44
apos@@ 43
right 41
J 40
the@@ 39
ound 38
ich 38
also 37
ain 36
don 36
« 32
ight 32
á 32
ect 31
Y 31
ú 30
+ 30
had 30
even 29
» 28
Ѐ 28
É 27
@ 26
… 26
for 26
loo@@ 26
more 25
è@@ 24
ies 24
sy@@ 24
way 23
ou 22
tion 22
 22
í 21
&apos;@@ 21
we 21
oug@@ 20
ind 20
q@@ 19
à@@ 19
# 19
) 18
ó 18
chan@@ 18
ical 18
thr@@ 18
ions 17
Z 17
out 17
= 16
´ 15
ally 15
act@@ 15
ever 14
á@@ 14
wh@@ 13
Q 13
j 13
ous 13
able 12
ì@@ 12
if 12
í@@ 12
ó@@ 11
ust 11
Now 10
now 10
ough 10
ould 9
hap@@ 9
how 9
ç@@ 9
you 9
You 9
ã@@ 9
­ 8
ings 7
ö@@ 7
* 6
ays 6
( 6
aid 6
ittle 6
ely 6
ents 5
ò@@ 5
some 5
ated 5
that 5
can 5
ht 5
ñ@@ 5
This 5
We 4
They 4
very 4
nd 4
ded 4
not 4
อ@@ 4
² 3
world 3
ople 3
this 3
was 3
want 3
here 3
with 3
new 3
would 3
see 3
º 3
€ 2
from 2
¼ 2
ü@@ 2
which 2
ked 2
your 2
˚ 2
ā@@ 2
Ó@@ 2
ë@@ 2
​ 2
where 2
then 2
ร 2
่ 2
ย 2
ū@@ 2
Á@@ 2
́ 2
ć 2
when 2
™ 1
İ@@ 1
his 1
And 1
® 1
have 1
ž@@ 1
ú@@ 1
¥ 1
© 1
‘ 1
just 1
most 1
got 1
know 1
û 1
It 1
ø@@ 1
È@@ 1
ȏ@@ 1
â@@ 1
 1
thin@@ 1
^ 1
has 1
_ 1
‒ 1
﻿ 1
æ@@ 1
ù@@ 1
Å@@ 1
ï 1
will 1
thing 1
about 1
ŧ@@ 1
their 1
¿ 1
