, 106010
. 99085
di 59379
a 50562
e 48782
che 46918
i 35112
la 30085
è 29014
o 26622
un 26263
il 25139
in 24620
are 23766
per 20014
s@@ 19131
ato 18487
una 17537
i@@ 16023
non 15766
le 15156
in@@ 14963
&quot; 14717
t@@ 13830
d@@ 13544
si 13485
c@@ 13205
er@@ 13022
E 13013
to 12918
p@@ 12584
l&apos; 12549
or@@ 12233
ar@@ 11612
m@@ 11530
sono 11517
ale 11285
da 11145
di@@ 10951
ano 10916
r@@ 10890
av@@ 10630
v@@ 10564
u@@ 10564
at@@ 10481
es@@ 10010
ere 9910
f@@ 9640
del 9449
più 9392
l@@ 9311
come 9303
ia 9223
con 9185
: 9132
en@@ 9119
ta 8993
n@@ 8984
? 8886
se 8774
e@@ 8694
S@@ 8689
questo 8419
al@@ 8284
b@@ 8266
ol@@ 8244
ic@@ 8226
ità 8156
lo 8107
io 8099
g@@ 7837
della 7663
im@@ 7599
so 7584
pi@@ 7568
&apos; 7565
ti 7565
P@@ 7544
ci 7464
o@@ 7393
as@@ 7328
it@@ 7286
azione 7165
am@@ 7137
ma 7015
a@@ 6938
os@@ 6872
ci@@ 6829
tr@@ 6819
an@@ 6796
D@@ 6680
ri@@ 6616
con@@ 6606
ate 6554
C@@ 6544
ha 6481
el@@ 6469
mi 6402
gi@@ 6347
us@@ 6347
sc@@ 6317
ati 6302
oc@@ 6222
amente 6190
al 6158
att@@ 6145
ica 6114
on@@ 6066
era 6015
enti 6008
ore 5771
ono 5641
ando 5574
qu@@ 5572
ico 5564
is@@ 5526
st@@ 5489
per@@ 5489
ata 5483
nel 5472
te 5470
ap@@ 5452
gli 5410
M@@ 5314
ali 5187
ente 5105
dei 5073
chi@@ 4964
om@@ 4956
ter@@ 4952
par@@ 4943
cosa 4933
ris@@ 4909
pr@@ 4908
Ma 4864
do 4860
ad@@ 4840
li 4817
ent@@ 4789
ho 4782
et@@ 4735
ai 4720
um@@ 4664
molto 4653
re@@ 4621
ess@@ 4605
ur@@ 4516
ett@@ 4514
un@@ 4498
delle 4498
ione 4473
A@@ 4452
em@@ 4448
essere 4436
questa 4415
enza 4365
ot@@ 4362
iamo 4356
cui 4343
amo 4318
z@@ 4303
abbiamo 4298
alla 4294
-- 4281
zione 4278
col@@ 4236
loro 4228
N@@ 4216
li@@ 4191
ec@@ 4165
pos@@ 4159
perché 4148
po 4145
anni 4069
esso 4062
anche 4058
Non 4026
ante 4021
persone 3986
no 3978
cor@@ 3949
ie 3896
fare 3880
ero 3859
ac@@ 3843
anno 3827
uto 3786
B@@ 3780
com@@ 3780
su@@ 3760
uno 3723
ut@@ 3706
ura 3687
ici 3682
à 3676
ò 3671
V@@ 3669
quando 3668
hanno 3666
endo 3611
E@@ 3575
ire 3565
L@@ 3548
La 3546
str@@ 3520
vi@@ 3496
ete 3468
dell&apos; 3451
solo 3431
tutto 3413
su 3393
T@@ 3392
così 3389
pot@@ 3387
etto 3353
G@@ 3335
sol@@ 3322
ad 3308
ov@@ 3306
acc@@ 3279
tutti 3274
ag@@ 3265
anti 3263
O@@ 3249
mondo 3228
ora 3224
ori 3221
ito 3219
pre@@ 3202
de@@ 3198
R@@ 3184
un&apos; 3177
ric@@ 3139
sp@@ 3134
iv@@ 3133
Il 3104
modo 3103
ist@@ 3101
ne 3084
quello 3061
and@@ 3041
ina 3026
ev@@ 2971
fatto 2955
ino 2944
gr@@ 2910
vol@@ 2909
chi 2908
og@@ 2885
vi 2862
inter@@ 2861
ento 2859
cer@@ 2853
F@@ 2852
ig@@ 2850
mo 2845
er 2845
sia 2842
cose 2839
pen@@ 2830
for@@ 2829
h@@ 2807
si@@ 2774
nella 2771
ari 2762
ch@@ 2753
id@@ 2731
bi@@ 2706
min@@ 2704
eg@@ 2693
c&apos; 2692
siamo 2684
I@@ 2683
tra 2682
ivo 2642
contr@@ 2623
ir@@ 2622
mio 2596
all&apos; 2590
ine 2589
questi 2585
br@@ 2569
ass@@ 2569
H@@ 2560
ciò 2558
dov@@ 2554
est@@ 2543
sap@@ 2533
olo 2515
1@@ 2515
ant@@ 2513
queste 2510
Quindi 2510
stato 2502
op@@ 2499
parte 2495
ast@@ 2474
ul@@ 2472
me@@ 2464
dis@@ 2454
prima 2451
re 2451
il@@ 2450
me 2447
noi 2438
ver@@ 2432
ven@@ 2431
ed 2420
zioni 2414
mia 2414
trov@@ 2408
vita 2384
fr@@ 2382
diver@@ 2358
azioni 2347
sta 2337
leg@@ 2335
due 2332
È 2311
Qu@@ 2310
cos@@ 2310
ce 2300
alle 2299
sim@@ 2275
ani 2275
port@@ 2273
cre@@ 2271
anza 2265
ini 2261
int@@ 2246
ole 2246
Questo 2245
ing@@ 2240
ava 2236
car@@ 2232
qui 2224
se@@ 2192
fa 2182
ile 2174
oi 2174
gu@@ 2169
ogni 2158
amento 2150
almente 2149
ed@@ 2143
co 2139
pl@@ 2139
all@@ 2132
iti 2125
ita 2125
può 2103
man@@ 2097
-@@ 2092
tre 2077
fin@@ 2076
evo 2070
pa@@ 2067
iva 2039
ott@@ 2031
pe@@ 2029
le@@ 2028
end@@ 2020
fon@@ 2015
cambi@@ 2008
sul 1993
mente 1991
vis@@ 1986
pens@@ 1986
ab@@ 1986
res@@ 1969
qualcosa 1965
succ@@ 1964
fer@@ 1963
dal 1959
izz@@ 1949
ca 1948
gen@@ 1945
ese 1938
In 1937
zz@@ 1934
etti 1932
utt@@ 1928
sa 1919
ola 1915
one 1910
ite 1899
uc@@ 1889
ser@@ 1889
qual@@ 1888
iche 1885
poi 1882
pres@@ 1878
A 1877
migli@@ 1875
dove 1875
cont@@ 1858
bu@@ 1852
altro 1847
mostr@@ 1847
ra 1847
tempo 1847
♫ 1841
ve@@ 1840
fac@@ 1834
por@@ 1826
met@@ 1823
- 1819
cap@@ 1818
dire 1814
In@@ 1800
an 1788
mai 1778
h 1776
abil@@ 1771
zion@@ 1770
na 1756
l 1751
anz@@ 1750
vedere 1749
Se 1747
esi 1747
diamo 1739
ni 1728
ancora 1724
degli 1717
sulla 1713
unque 1697
ioni 1694
eri 1681
chiam@@ 1677
ra@@ 1669
mer@@ 1666
gente 1660
Al@@ 1660
aggio 1659
far@@ 1659
co@@ 1657
dic@@ 1654
eva 1651
quel 1645
piccol@@ 1644
divent@@ 1644
... 1626
prov@@ 1617
sar@@ 1616
rit@@ 1613
pass@@ 1608
volta 1603
entr@@ 1602
davvero 1598
tras@@ 1597
ana 1595
L&apos; 1591
cr@@ 1589
meno 1576
sal@@ 1575
riv@@ 1575
ure 1568
grande 1564
immag@@ 1562
sent@@ 1558
quella 1553
nostro 1552
der@@ 1550
ogli@@ 1537
cam@@ 1535
possiamo 1535
aff@@ 1532
voi 1529
lavoro 1525
St@@ 1517
art@@ 1516
prog@@ 1516
rim@@ 1513
k 1512
I 1505
dopo 1504
k@@ 1504
sempre 1504
sem@@ 1502
vostr@@ 1502
ice 1501
can@@ 1495
sen@@ 1495
pi 1481
arriv@@ 1466
lavor@@ 1466
mor@@ 1462
evano 1458
ei 1458
cl@@ 1456
dalla 1451
on 1446
Ora 1440
comun@@ 1439
Per 1436
zza 1433
erano 1433
sul@@ 1430
quanto 1428
uro 1426
bero 1424
otto 1417
dev@@ 1416
suo 1415
J@@ 1412
dom@@ 1411
avo 1409
Sono 1402
altri 1402
eff@@ 1400
de 1399
detto 1388
bile 1385
ili@@ 1385
inv@@ 1384
bas@@ 1383
nostra 1376
2@@ 1374
inizi@@ 1372
5 1371
rag@@ 1368
ve 1366
mo@@ 1365
viv@@ 1357
soci@@ 1344
te@@ 1343
sua 1342
é 1340
idea 1337
Perché 1335
giorno 1334
stu@@ 1333
person@@ 1331
d&apos; 1329
uti 1323
asi 1322
not@@ 1320
facci@@ 1320
costru@@ 1319
storia 1318
acci@@ 1317
fi@@ 1316
Questa 1313
sic@@ 1311
ene 1294
ion@@ 1291
0 1289
azi@@ 1289
tro 1285
comp@@ 1285
Ho 1283
u 1282
y 1281
reg@@ 1272
olog@@ 1271
Ci 1265
lu@@ 1261
interess@@ 1261
y@@ 1261
sign@@ 1259
Si 1259
pro@@ 1256
ivi 1255
avere 1253
emente 1246
nell&apos; 1245
ì 1242
quindi 1241
avano 1237
ario 1237
d 1236
senza 1236
peri@@ 1235
nei 1231
bene 1230
Abbiamo 1229
igli@@ 1228
tutte 1225
dere 1218
problema 1217
TED 1216
ness@@ 1214
go 1211
iz@@ 1211
aut@@ 1208
des@@ 1202
uom@@ 1194
oggi 1189
ro 1189
nelle 1185
proprio 1184
fat@@ 1178
stesso 1178
guard@@ 1176
tipo 1176
possono 1174
K@@ 1174
Le 1173
sor@@ 1171
mett@@ 1170
età 1170
za 1167
dete 1166
mon@@ 1164
stata 1159
fine 1159
conos@@ 1159
Come 1158
gior@@ 1156
atori 1155
or 1152
del@@ 1152
pubbl@@ 1152
punto 1148
altra 1147
abb@@ 1142
el 1138
secon@@ 1138
nostri 1137
W@@ 1136
realtà 1134
Grazie 1128
ane 1126
Un@@ 1125
sci@@ 1118
qualche 1116
potr@@ 1115
molti 1114
sistema 1112
du@@ 1110
rap@@ 1105
plic@@ 1104
An@@ 1103
if@@ 1103
parl@@ 1101
funzion@@ 1101
agli@@ 1101
eb@@ 1100
esempio 1095
vel@@ 1088
and 1088
ific@@ 1087
oso 1084
zzo 1083
fron@@ 1082
ff@@ 1082
prend@@ 1081
cin@@ 1081
rei 1079
ne@@ 1075
tor@@ 1073
enzi@@ 1071
000 1071
ede 1071
imento 1070
fam@@ 1067
mag@@ 1061
U@@ 1059
bisogno 1059
Quando 1058
asp@@ 1057
altre 1056
tu@@ 1055
ved@@ 1052
.@@ 1051
uzione 1050
ragazz@@ 1045
ello 1044
cal@@ 1043
oco 1042
bil@@ 1042
mat@@ 1042
chio 1041
proc@@ 1041
dati 1038
form@@ 1037
od@@ 1036
importante 1033
cominci@@ 1029
bambini 1028
prod@@ 1026
tim@@ 1026
agli 1026
cono 1024
ill@@ 1022
nuovo 1022
part@@ 1021
ti@@ 1011
rac@@ 1008
arsi 1005
ove 1004
svilup@@ 1002
ultim@@ 1001
! 999
Mi 997
sett@@ 995
momento 991
Così 988
ace 986
Ch@@ 985
serv@@ 985
segu@@ 981
sembr@@ 978
circa 977
impar@@ 975
aria 974
andare 969
centr@@ 968
fil@@ 967
ung@@ 967
casa 966
dio 965
volte 964
negli 964
posto 963
nu@@ 961
anda 960
rebbe 958
mal@@ 957
; 955
Ed 952
present@@ 951
tut@@ 951
oni 946
ea 945
dall&apos; 944
ili 943
viene 943
quel@@ 942
Un 941
rend@@ 939
aveva 936
sist@@ 934
cell@@ 934
imo 932
propr@@ 929
alizz@@ 928
disc@@ 925
trat@@ 925
fuori 923
atore 921
visto 921
mentre 919
emo 918
ret@@ 918
t 917
dur@@ 916
prim@@ 916
condi@@ 912
aggi@@ 911
maggi@@ 911
erra 911
diffic@@ 910
pol@@ 909
num@@ 909
rig@@ 907
oli 904
econom@@ 903
sopr@@ 903
ambi@@ 901
acqua 901
Ecco 901
ind@@ 900
vic@@ 899
nuov@@ 897
via 897
città 896
mus@@ 896
ricer@@ 893
pros@@ 892
mis@@ 892
rel@@ 890
abbi@@ 889
pag@@ 888
attraver@@ 888
ista 886
fosse 884
bel@@ 882
enze 879
bili 878
af@@ 877
donne 876
cu@@ 875
ici@@ 874
val@@ 874
rob@@ 874
allo 873
ob@@ 871
cervello 871
anim@@ 870
aiut@@ 869
he 866
2 865
tecnologia 864
dice 864
capire 862
dia 862
itu@@ 861
gg@@ 860
indi@@ 857
4@@ 857
fic@@ 857
agg@@ 854
rius@@ 853
voglio 853
tem@@ 851
ece 850
ge 848
ens@@ 847
vero 846
m 846
potete 845
ni@@ 845
en 844
esse 844
stiamo 843
ive 842
etro 842
alcuni 840
parlare 837
pes@@ 837
app@@ 836
tel@@ 835
qualcuno 834
stanno 833
gener@@ 833
miei 832
primo 830
forse 829
evamo 828
Talk 828
w@@ 827
milioni 826
az@@ 824
creare 824
mot@@ 824
cerc@@ 823
over@@ 822
osi 822
spi@@ 820
nostre 820
ult@@ 820
prot@@ 820
credo 819
azz@@ 818
grup@@ 818
lasci@@ 817
continu@@ 816
insegn@@ 816
iglia 816
oll@@ 815
pon@@ 815
glio 815
mar@@ 815
pensare 814
ismo 814
po@@ 813
rete 812
med@@ 812
decis@@ 811
10 810
pian@@ 808
adre 807
real@@ 805
stati 805
fino 802
ifica 802
gn@@ 801
vogli@@ 798
vu@@ 798
insieme 797
differ@@ 796
abile 795
Subtitles 795
Transcript 795
tanto 795
bl@@ 795
3@@ 793
Ques@@ 791
quest@@ 788
Una 787
% 786
ogg@@ 786
trop@@ 784
avete 781
ada 781
fl@@ 781
ord@@ 775
sarebbe 774
possibile 772
quelle 771
Cos@@ 770
ette 770
prendere 770
nat@@ 769
gono 768
isce 767
Per@@ 764
sper@@ 763
grandi 762
molte 761
mili@@ 761
rem@@ 761
usa 760
tri 759
lì 758
organ@@ 758
arvi 757
lui 757
scu@@ 757
veramente 756
oto 756
fut@@ 756
esto 756
mol@@ 754
abor@@ 754
energ@@ 753
este 753
informa@@ 752
C&apos; 751
arci 751
isti 751
evol@@ 751
scoper@@ 749
potrebbe 749
8@@ 747
doll@@ 747
stess@@ 747
elle 746
specie 746
libr@@ 743
farlo 742
tà 742
00 741
eta 741
ide@@ 740
stessa 740
già 737
super@@ 736
arlo 732
Tut@@ 732
problemi 732
ù 731
cresc@@ 730
verso 729
forma 727
ebbe 726
partic@@ 725
fu 725
fis@@ 724
dobbiamo 723
sei 720
macch@@ 718
spaz@@ 718
siano 717
dir@@ 716
essi 715
grado 715
fanno 714
ona 714
sost@@ 713
19@@ 713
caso 713
nor@@ 712
4 710
iniz@@ 710
prob@@ 709
stor@@ 706
6@@ 706
nel@@ 705
model@@ 703
polit@@ 700
ber@@ 698
occu@@ 697
9@@ 696
spec@@ 692
emi 691
univer@@ 691
ell@@ 691
ont@@ 690
bo 687
s 685
pun@@ 685
ca@@ 683
1 680
of@@ 680
ost@@ 679
gover@@ 679
compl@@ 677
guar@@ 676
coll@@ 675
computer 675
pu@@ 673
possi@@ 672
us 672
hi 671
consi@@ 670
pat@@ 668
Y@@ 668
press@@ 667
que 665
segn@@ 657
atter@@ 652
so@@ 651
20 645
ment@@ 644
sch@@ 643
amp@@ 643
5@@ 642
3 642
alcun@@ 639
50 638
bar@@ 633
au@@ 630
ten@@ 630
don@@ 630
ute 629
ai@@ 627
batt@@ 625
agn@@ 625
men@@ 625
complet@@ 622
fel@@ 621
far 612
program@@ 608
tri@@ 607
0@@ 606
cas@@ 606
g 604
ard@@ 603
incredi@@ 601
8 600
ari@@ 599
Be@@ 598
dist@@ 598
itt@@ 598
capac@@ 597
mess@@ 594
bamb@@ 590
fu@@ 589
care 585
ma@@ 585
cur@@ 583
rec@@ 582
vent@@ 581
fant@@ 580
cir@@ 576
arg@@ 575
sec@@ 574
lav@@ 573
ang@@ 573
oper@@ 572
cent@@ 572
7@@ 570
fos@@ 569
’ 567
natur@@ 567
oro 567
import@@ 564
princi@@ 564
pop@@ 561
n 561
cis@@ 557
ben@@ 557
ef@@ 557
is 555
stud@@ 555
det@@ 555
ren@@ 553
ar 552
distr@@ 550
Con@@ 548
glob@@ 546
am 544
p 543
opo 537
state 536
sin@@ 534
fig@@ 533
ep@@ 527
ordin@@ 526
lin@@ 526
dem@@ 525
as 524
prof@@ 524
reb@@ 520
amb@@ 517
nec@@ 516
lig@@ 516
vello 515
30 515
ustr@@ 513
perc@@ 511
ee 504
dr@@ 503
tit@@ 503
ome 503
ros@@ 503
prop@@ 501
ing 500
ose 500
cult@@ 500
ché 495
no@@ 494
7 492
media 489
ot 488
ade 487
vir@@ 485
anto 480
azie 472
Africa 470
ran@@ 469
es 468
9 465
ub@@ 464
be@@ 464
ande 462
som@@ 462
defin@@ 461
6 460
ban@@ 453
b 452
ich@@ 451
creat@@ 448
non@@ 448
posit@@ 447
flu@@ 446
innov@@ 442
materi@@ 439
tra@@ 439
ou@@ 434
bre@@ 432
tecnolog@@ 431
be 431
lim@@ 430
alc@@ 430
200@@ 429
viol@@ 427
inci@@ 425
dam@@ 424
mi@@ 422
mil@@ 421
Ar@@ 420
pio 420
cres@@ 419
ard 418
ide 418
100 417
loc@@ 416
lan@@ 414
est 412
enz@@ 412
video 410
fort@@ 409
New 408
O 405
mic@@ 402
tru@@ 402
ust@@ 402
trem@@ 401
S 401
individu@@ 399
mem@@ 397
j@@ 394
x 393
mov@@ 393
otog@@ 393
cat@@ 392
ud@@ 392
arch@@ 391
hi@@ 389
son 384
ogn@@ 383
imp@@ 380
oce@@ 380
stat@@ 378
20@@ 377
dig@@ 375
opport@@ 373
x@@ 370
inc@@ 369
sing@@ 366
asci@@ 365
ave 364
ro@@ 364
neur@@ 364
mac@@ 361
mos@@ 360
tec@@ 359
gh@@ 359
design 354
ner@@ 353
arr@@ 351
into 351
No 350
fun@@ 350
equ@@ 350
fre@@ 350
ta@@ 347
America 347
cond@@ 347
cit@@ 346
dav@@ 346
Br@@ 345
ase 341
ay 340
go@@ 339
ostr@@ 339
pic@@ 338
Internet 338
iver@@ 337
D 328
fe@@ 325
eng@@ 325
sue 324
tal@@ 324
obbiamo 322
diff@@ 322
&#91; 322
&#93; 322
org@@ 319
acqu@@ 316
ema 315
ame 314
clim@@ 311
,@@ 308
gre@@ 307
ner 305
ram@@ 303
respon@@ 303
Ne@@ 300
ative 298
Gr@@ 295
ue 292
C 291
all 288
ce@@ 283
comm@@ 282
educ@@ 279
gran@@ 276
aver@@ 274
K 274
lead@@ 274
V 273
altr@@ 272
L 271
spe@@ 269
scient@@ 268
pers@@ 267
anc@@ 266
ak@@ 265
c 262
citt@@ 262
line 262
G 259
ge@@ 258
ug@@ 257
it 257
th@@ 256
off@@ 255
inform@@ 254
Z@@ 254
erg@@ 253
deci@@ 252
gir@@ 252
sm@@ 250
eve 249
we@@ 248
T 247
attr@@ 241
forma@@ 239
ow@@ 235
r 235
gl@@ 233
man 233
ol 232
bor@@ 230
os 228
sup@@ 228
et 225
oo@@ 225
♪ 225
sh@@ 221
z 220
sum@@ 220
conn@@ 220
ey 219
M 218
sv@@ 217
chil@@ 215
econ@@ 212
f 212
esem@@ 211
inn@@ 211
sel@@ 207
Go@@ 206
B 205
he@@ 204
ter 204
bisog@@ 202
ow 201
” 192
entre 192
ay@@ 190
do@@ 189
quot@@ 188
eri@@ 188
sl@@ 182
data 181
up@@ 173
ity 172
tw@@ 171
TE@@ 170
bis@@ 167
tur@@ 166
“ 164
inst@@ 162
bus@@ 162
ex@@ 162
id 161
ke 161
net 160
ago 160
– 159
Th@@ 158
case 158
desig@@ 156
eme 154
R 153
aw@@ 152
gra@@ 151
at 151
time 150
iness 149
vide@@ 149
Amer@@ 148
ess 148
um 145
X@@ 145
e-@@ 143
P 143
ill 139
mom@@ 139
ah 139
ph@@ 137
pret@@ 137
ack@@ 137
sur@@ 137
ers 135
to@@ 133
ook 132
age 130
our@@ 130
gli@@ 129
om 129
use 128
° 128
sub@@ 128
wit@@ 128
tre@@ 126
ans@@ 125
ly 124
muc@@ 122
So 116
ach@@ 115
oun@@ 114
/ 113
ste@@ 111
contin@@ 109
ch 108
ion 105
ic 105
Inter@@ 105
ir 104
ation 103
our 103
The 103
v 101
H 100
ack 99
ong 98
ong@@ 95
fir@@ 95
w 95
ood 94
by 94
cora 94
F 94
op 93
X 93
q 92
of 92
lif@@ 92
gett@@ 92
shi@@ 91
pre 90
social 89
th 87
cuno 87
les 87
get 86
W 86
ear@@ 86
Q@@ 86
wor@@ 85
ever@@ 84
art 83
.. 83
U 82
ause 81
produc@@ 80
incre@@ 80
work 79
ans 78
ional 77
ool 77
Wh@@ 76
Ab@@ 75
bo@@ 75
la@@ 75
cc@@ 75
pub@@ 73
— 73
mark@@ 72
ary 70
trans@@ 69
nolog@@ 68
up 67
sa@@ 67
ell 66
N 65
my 64
sk@@ 64
ick@@ 64
ance 63
der 63
king 63
comput@@ 62
ple 61
é@@ 61
ture 60
over 60
own 59
back 59
ks 59
ld 56
bec@@ 56
ence 56
ant 55
igh@@ 55
dre@@ 55
out@@ 54
ds 53
ent 53
ques@@ 53
the 53
than 53
ain@@ 52
ect@@ 52
ins 51
end 49
ates 48
ast 48
st 47
ak 47
put 47
$ 46
Afr@@ 46
&@@ 45
plan@@ 44
ther 44
apos@@ 43
ory 43
talk 42
right 41
ber 41
J 40
ble 40
the@@ 39
biamo 39
her 38
ass 38
ich 38
ound 37
Ecc@@ 37
also 37
create 37
ise 36
ain 36
don 36
ope 36
ther@@ 35
oul@@ 35
ones 35
Tran@@ 35
show 34
fa@@ 32
oom 32
« 32
ight 32
á 32
tog@@ 31
Y 31
well 31
ics 30
probl@@ 30
int 30
ú 30
liv@@ 30
+ 30
had 30
ts 29
,000 29
even 29
red 28
» 28
ist 28
ps 28
start@@ 28
Ѐ 28
É 27
ty 27
@ 26
… 26
for 26
ut 26
let 25
insi@@ 25
more 25
ots 24
è@@ 24
sy@@ 24
hum@@ 24
way 23
ars 23
ank 23
fri@@ 23
now@@ 23
ach 23
ou 22
ilup@@ 22
any 22
 22
ject 21
ke@@ 21
í 21
tion 21
&apos;@@ 21
we 21
any@@ 20
ep 20
sion 20
ding 20
bit 19
ves 19
air 19
q@@ 19
à@@ 19
oug@@ 19
# 19
loo@@ 19
) 18
old 18
ó 18
ical 18
ment 18
ies 18
each 18
ows 17
Z 17
ors 17
ement 17
thr@@ 17
try 17
ind 17
imag@@ 17
out 17
ous@@ 16
= 16
bet@@ 16
ms 16
Bec@@ 16
off 15
´ 15
ning 15
ally 15
read@@ 15
act@@ 15
ree 15
wi@@ 15
ness 14
stem 14
ets 14
hel@@ 14
ater 14
ever 14
ial 14
ons 14
water 14
ft 14
á@@ 14
ns 13
wh@@ 13
Q 13
etter 13
j 13
ous 13
able 12
res 12
ì@@ 12
if 12
í@@ 12
ily 12
ating 12
ó@@ 11
ust 11
reas@@ 11
ions 10
done 10
Now 10
jo@@ 10
commun@@ 10
now 10
ult 10
ces 10
big 10
ll 10
side 10
face 10
ect 10
ould 9
fore 9
ough 9
how 9
ç@@ 9
indi 9
you 9
You 9
ã@@ 9
chan@@ 9
day 8
ited 8
its 8
down 8
school 8
ition 8
power 8
pt 8
­ 8
hap@@ 7
chang@@ 7
vidu@@ 7
look 7
ids 7
script 7
Sub@@ 7
act 7
ings 7
ations 7
live 7
ö@@ 7
ody 7
* 6
ities 6
( 6
als 6
aid 6
ittle 6
coun@@ 6
ely 6
ents 5
ful 5
call@@ 5
ò@@ 5
my@@ 5
life 5
some 5
ated 5
ye@@ 5
that 5
can 5
lear@@ 5
kes 5
ñ@@ 5
scri@@ 5
working 5
buil@@ 5
lem 5
This 5
What 5
say 5
under@@ 4
ways 4
human 4
We 4
cour@@ 4
They 4
very 4
point 4
alk 4
nd 4
him 4
ded 4
not 4
อ@@ 4
ution 3
² 3
self 3
call 3
world 3
give 3
hav@@ 3
kind 3
ople 3
room 3
this 3
was 3
want 3
here 3
with 3
new 3
ands 3
If 3
country 3
four 3
would 3
see 3
º 3
ism 3
nex@@ 2
€ 2
beg@@ 2
know@@ 2
story 2
from 2
ht 2
¼ 2
ying 2
ü@@ 2
which 2
she 2
ular 2
ked 2
your 2
lion 2
change 2
˚ 2
ā@@ 2
light 2
problem 2
lot 2
less 2
Well 2
Ó@@ 2
ë@@ 2
​ 2
where 2
oday 2
then 2
ร 2
่ 2
ย 2
form 2
ū@@ 2
ects 2
ays 2
Á@@ 2
́ 2
ć 2
when 2
next 1
™ 1
İ@@ 1
his 1
And 1
® 1
have 1
good 1
body 1
ž@@ 1
ú@@ 1
¥ 1
found 1
© 1
‘ 1
ned 1
just 1
wom@@ 1
love 1
aying 1
most 1
got 1
went 1
know 1
û 1
It 1
experi@@ 1
ought 1
many 1
expl@@ 1
dn 1
through 1
ems 1
ø@@ 1
È@@ 1
ȏ@@ 1
â@@ 1
 1
technolog@@ 1
When 1
question 1
tech@@ 1
thin@@ 1
^ 1
has 1
_ 1
place 1
Thank 1
only 1
‒ 1
How 1
dren 1
﻿ 1
æ@@ 1
ù@@ 1
Å@@ 1
happ@@ 1
ï 1
will 1
every@@ 1
thing 1
with@@ 1
tell 1
about 1
ŧ@@ 1
used 1
their 1
happen@@ 1
sort 1
¿ 1
every 1
