, 120819
. 100102
the 78078
to 50003
s 47076
and 46567
of 45765
a 45235
ing 37705
that 35347
s@@ 33676
y 33188
in 32824
I 32435
t@@ 31913
ed 31710
m@@ 31341
h@@ 31235
e@@ 28448
c@@ 28387
d@@ 28114
b@@ 27603
is 26325
it 26115
es 25863
l@@ 25839
e 25617
g@@ 24946
you 24504
w@@ 24337
in@@ 24062
p@@ 23479
f@@ 23004
&apos;s 22260
t 21622
we 21592
er 20940
i@@ 20930
n@@ 20198
re@@ 20089
a@@ 19822
an@@ 19620
r@@ 19332
ar@@ 19257
d 18256
y@@ 17917
on 17916
at@@ 17633
And 16739
k@@ 16246
o@@ 16229
this 16203
at 14497
an 14284
al@@ 14170
u@@ 14147
st@@ 14067
al 13959
&quot; 13624
it@@ 13478
tr@@ 13294
on@@ 13058
en@@ 12916
are 12871
ic@@ 12707
or@@ 12452
er@@ 12404
ch@@ 12262
ent 12149
was 12017
di@@ 11938
th@@ 11624
for 11442
k 11214
ly 10883
have 10660
they 10184
il@@ 10170
sh@@ 10167
v@@ 10114
de@@ 10093
li@@ 10024
un@@ 10015
en 9920
n 9908
-- 9893
ur@@ 9838
as@@ 9769
one 9762
with 9680
or 9666
le@@ 9663
be 9514
all 9371
m 9326
is@@ 9325
-@@ 9263
can 9119
as 9065
? 9060
h 9009
&apos;t 8728
what 8620
So 8510
ex@@ 8462
pl@@ 8420
about 8375
ay 8372
ac@@ 8099
em@@ 7971
el@@ 7944
S@@ 7855
A@@ 7773
l 7630
et@@ 7467
not 7454
im@@ 7364
am@@ 7278
us@@ 7219
: 7209
ou@@ 7013
om@@ 6924
do 6868
ent@@ 6858
ation 6784
op@@ 6770
Th@@ 6698
there 6691
our 6638
ar 6621
ne@@ 6620
p 6614
&apos;re 6612
ig@@ 6575
ag@@ 6520
It 6515
be@@ 6406
ot@@ 6395
my 6351
people 6344
pr@@ 6313
like 6311
ol@@ 6243
ity 6231
ers 6074
from 6067
H@@ 6044
f 5992
M@@ 5972
so 5959
ad@@ 5817
king 5817
ul@@ 5789
ow@@ 5774
ap@@ 5738
ive 5737
out 5736
but 5593
ion 5469
si@@ 5444
su@@ 5369
ate 5353
con@@ 5338
1@@ 5336
B@@ 5327
oo@@ 5325
ies 5298
just 5289
oc@@ 5217
le 5177
ic 5145
We 5138
um@@ 5119
ta@@ 5087
per@@ 5082
T@@ 5043
The 5037
But 5035
for@@ 5001
com@@ 4993
very 4976
ut@@ 4976
j@@ 4940
these 4902
iv@@ 4885
me 4880
ure 4876
if 4824
he 4812
ell 4806
us 4805
o 4786
se@@ 4780
by 4725
os@@ 4634
them 4617
up 4602
ess 4536
know 4496
ect@@ 4474
going 4473
wh@@ 4469
C@@ 4460
more 4455
ions 4448
gr@@ 4433
oun@@ 4393
ec@@ 4369
O@@ 4299
od@@ 4276
se 4271
ma@@ 4259
W@@ 4255
Wh@@ 4252
when 4238
had 4233
way 4228
because 4221
ow 4174
thing 4156
ce 4149
N@@ 4091
me@@ 4070
other 4068
how 4067
loo@@ 4064
get 4056
D@@ 4056
ter@@ 4046
E@@ 4041
br@@ 4036
see 4027
were 3989
wor@@ 3981
ab@@ 3974
their 3950
ri@@ 3921
think 3916
your 3893
ge 3877
ev@@ 3876
who 3875
P@@ 3867
et 3851
do@@ 3837
which 3834
uc@@ 3831
really 3831
ound 3831
would 3802
av@@ 3801
ally 3773
our@@ 3769
id@@ 3765
res@@ 3747
I@@ 3747
all@@ 3728
str@@ 3648
sc@@ 3642
cl@@ 3637
&apos;ve 3629
ever@@ 3615
qu@@ 3604
ds 3599
vi@@ 3584
ks 3577
ine 3567
ther 3491
here 3477
&apos;m 3471
G@@ 3470
time 3467
own 3457
ad 3457
ess@@ 3438
where 3437
L@@ 3433
ence 3425
You 3409
es@@ 3408
age 3397
g 3382
art@@ 3381
has 3366
fr@@ 3354
world 3353
w 3343
ood 3340
0 3337
act@@ 3317
fe@@ 3297
and@@ 3275
then 3273
te@@ 3271
This 3264
able 3262
ke 3253
sp@@ 3248
don 3186
into 3173
cre@@ 3171
some 3159
actually 3149
&apos;@@ 3147
pro@@ 3141
ed@@ 3133
ob@@ 3118
est 3118
og@@ 3117
th 3081
ant@@ 3060
F@@ 3043
ist@@ 3038
man@@ 3030
x@@ 3027
R@@ 3021
years 3015
now 3008
ough 2994
ame 2965
hap@@ 2956
0@@ 2956
will 2926
we@@ 2922
things 2913
iz@@ 2910
comp@@ 2909
2@@ 2908
ion@@ 2908
ph@@ 2901
ely 2890
go 2873
ays 2852
ot 2836
could 2828
ear@@ 2826
bi@@ 2815
ain 2814
est@@ 2797
want 2791
bu@@ 2789
ht 2789
der@@ 2780
ch 2762
Now 2758
fin@@ 2758
ents 2746
sel@@ 2737
ight 2732
chan@@ 2715
been 2708
ast 2706
ever 2703
par@@ 2698
he@@ 2698
They 2670
ant 2668
make 2662
ice 2640
ra@@ 2636
ere 2576
most 2565
ked 2559
9@@ 2544
ical 2538
alk 2526
; 2518
ind 2489
ir@@ 2477
said 2460
work 2460
des@@ 2458
if@@ 2452
than 2424
inter@@ 2415
ci@@ 2412
ated 2407
right 2406
something 2401
fac@@ 2398
over 2395
ste@@ 2394
pi@@ 2390
lif@@ 2377
ect 2377
ous 2360
ov@@ 2357
differ@@ 2351
bl@@ 2346
tion 2336
no 2315
el 2303
ong 2299
even 2299
pre@@ 2296
ite 2295
first 2284
no@@ 2282
new 2280
de 2279
those 2278
to@@ 2273
gre@@ 2258
sy@@ 2258
back 2251
much 2239
gu@@ 2239
z@@ 2228
mo@@ 2226
two 2223
got 2216
pe@@ 2207
ded 2204
also 2201
ace 2196
J@@ 2179
ett@@ 2172
thr@@ 2169
his 2167
ans 2152
pen@@ 2150
little 2147
ple 2133
over@@ 2112
ell@@ 2105
ome 2099
mon@@ 2095
In 2079
po@@ 2069
stu@@ 2049
fl@@ 2036
ay@@ 2015
af@@ 2003
ter 1995
ard 1993
oug@@ 1976
ut 1964
min@@ 1957
x 1951
ing@@ 1930
il 1918
A 1917
dr@@ 1905
cr@@ 1896
gen@@ 1882
ove 1869
fu@@ 1867
ade 1852
rec@@ 1849
col@@ 1795
ill 1787
♫ 1783
3@@ 1777
ff@@ 1776
come 1766
ill@@ 1759
of@@ 1756
am 1743
r 1710
use 1709
int@@ 1697
form@@ 1696
prob@@ 1692
stor@@ 1687
end@@ 1684
oll@@ 1682
part@@ 1681
econ@@ 1679
.@@ 1674
In@@ 1658
mar@@ 1654
les 1621
pos@@ 1616
att@@ 1607
sol@@ 1595
b 1585
ast@@ 1569
car@@ 1560
pt 1549
rel@@ 1542
ass@@ 1538
ey 1535
K@@ 1513
Y@@ 1501
nat@@ 1491
cam@@ 1489
bec@@ 1476
Ch@@ 1471
ve 1456
ran@@ 1439
bel@@ 1426
gl@@ 1425
cor@@ 1401
sci@@ 1392
bas@@ 1386
ver@@ 1356
ques@@ 1346
5@@ 1340
tim@@ 1334
sor@@ 1325
ser@@ 1300
ould 1300
pic@@ 1294
ave 1279
sim@@ 1278
soci@@ 1278
nolog@@ 1277
mer@@ 1276
c 1253
ia 1252
,@@ 1251
sen@@ 1244
import@@ 1236
dis@@ 1230
pers@@ 1225
ose 1196
TED 1178
ult@@ 1164
ole 1163
pol@@ 1151
az@@ 1147
idea 1146
ub@@ 1131
ai@@ 1125
000 1108
ings 1102
spec@@ 1090
ica 1082
mat@@ 1080
st 1078
acc@@ 1071
5 1062
olog@@ 1057
om 1049
ord@@ 1043
ause 1043
ile 1035
contr@@ 1022
vel@@ 1021
cont@@ 1020
St@@ 1015
ese 1011
00 1007
gi@@ 1006
bil@@ 1002
real@@ 1001
U@@ 1001
vis@@ 997
peri@@ 990
un 989
ust 982
pu@@ 978
&@@ 977
aut@@ 968
Al@@ 967
du@@ 966
ris@@ 957
pa@@ 955
te 955
cas@@ 953
tit@@ 951
pres@@ 951
co@@ 942
can@@ 937
ata 936
V@@ 933
go@@ 932
fun@@ 932
eb@@ 921
#@@ 918
fi@@ 910
cer@@ 903
&apos; 899
ire 892
cap@@ 891
ack 885
4@@ 885
possi@@ 884
ide@@ 869
i 859
thin@@ 852
Un@@ 841
ore 838
some@@ 822
som@@ 812
itt@@ 810
ili@@ 805
eff@@ 796
por@@ 794
tru@@ 792
8@@ 792
up@@ 769
vol@@ 769
ne 768
! 758
del@@ 757
ale 745
so@@ 738
abil@@ 735
gn@@ 734
port@@ 727
cu@@ 727
riv@@ 711
6@@ 711
prov@@ 702
per 695
rit@@ 688
dic@@ 681
2 674
vent@@ 674
prog@@ 666
the@@ 660
ott@@ 619
mag@@ 616
ually 609
7@@ 601
ti@@ 591
tw@@ 590
cos@@ 573
1 568
leg@@ 552
K 542
eg@@ 541
probl@@ 532
entr@@ 515
S 503
succ@@ 497
4 496
8 488
ina 482
ric@@ 474
re 466
met@@ 462
’ 460
fer@@ 459
.. 455
3 450
chi@@ 442
utt@@ 430
— 420
del 417
ard@@ 415
9 411
ve@@ 401
ie 399
aid 397
da 396
7 394
qual@@ 393
D 374
diff@@ 372
u 371
men@@ 345
6 343
tem@@ 340
pot@@ 339
mos@@ 333
V 332
wit@@ 328
mol@@ 326
era 315
sist@@ 312
far@@ 307
inci@@ 299
T 288
ople 281
amb@@ 278
lu@@ 274
year@@ 264
Z@@ 260
z 260
prim@@ 255
que 250
M 248
P 247
la 245
ero 241
ld 241
C 239
G 236
diver@@ 232
ich 227
♪ 226
io 223
B 219
ho 202
ir 199
ma 193
O 192
tra 190
pens@@ 188
sia 178
R 176
bile 175
TE@@ 175
ven@@ 174
nu@@ 173
fir@@ 166
Per@@ 163
ta 163
ene 162
zz@@ 156
/ 155
agg@@ 147
lo 140
ha 136
sul@@ 136
lav@@ 123
quot@@ 122
L 121
E 116
H 115
F 110
X@@ 106
co 106
ico 104
ai 104
Qu@@ 103
nel 102
propr@@ 101
$ 96
ra 96
q 92
due 87
ano 87
W 84
nel@@ 84
di 84
Q@@ 81
sem@@ 81
N 74
- 73
v 68
iti 65
ita 64
za 63
rag@@ 62
che 61
U 61
ani 58
sar@@ 56
ete 53
X 52
fat@@ 52
fare 51
li 51
J 50
ari 48
una 48
ino 47
ato 46
” 46
ali 44
Y 43
“ 42
ini 39
mo 39
é@@ 38
ou 37
enz@@ 37
cc@@ 36
ura 36
ittle 36
ora 35
ti 34
ito 34
ca 33
tro 33
altr@@ 32
ati 32
q@@ 31
ci 30
+ 30
Q 29
ema 28
cose 27
La 27
é 26
uno 26
solo 25
tut@@ 25
ori 23
quel@@ 23
si 21
í@@ 21
ni 19
chi 19
# 19
nd 19
Z 18
á@@ 18
ã@@ 18
non 17
ei 17
con 17
uto 16
po 15
trov@@ 15
izz@@ 15
mi 15
ante 15
ava 14
– 14
ono 13
% 13
ç@@ 13
) 12
apos@@ 12
@ 12
è@@ 12
ó@@ 12
… 12
ando 12
ostr@@ 11
eva 11
oi 10
etto 10
oro 10
sap@@ 10
muc@@ 9
endo 9
fa 9
enza 8
= 8
j 8
indi 8
Ma 8
mia 8
ö@@ 7
sta 7
‘ 7
anti 6
amo 6
á 6
ñ@@ 5
ó 5
Il 4
della 4
dov@@ 4
Ques@@ 4
อ@@ 4
olo 3
( 3
nostr@@ 3
enti 3
ü@@ 3
alle 3
vi 3
à 3
anto 3
ivo 3
í 3
ici 3
ché 3
^ 3
ù 2
ù@@ 2
ï@@ 2
amento 2
ente 2
esso 2
gli 2
â 2
 2
 2
ô@@ 2
ร 2
่ 2
Á@@ 2
anni 2
ć 2
qui 1
dei 1
anza 1
º@@ 1
˚ 1
É@@ 1
√ 1
± 1
ā@@ 1
* 1
vita 1
anche 1
ë@@ 1
ø@@ 1
è 1
£ 1
ย@@ 1
ย 1
€ 1
_ 1
su 1
ione 1
́ 1
æ@@ 1
¡ 1
Å@@ 1
ï 1
ä@@ 1
anno 1
¿ 1
