, 120819
. 100102
the 78078
to 49871
and 45792
of 45765
a 43442
that 35347
in 32824
I 32435
is 26325
ing 25411
it 25118
you 24504
s 22585
&apos;s 22260
we 21592
ed 20831
h@@ 20137
es 18963
And 16739
this 16203
y 15750
e@@ 15164
s@@ 15147
on 15143
t@@ 14806
&quot; 13624
f@@ 12870
b@@ 12851
l@@ 12709
c@@ 12650
w@@ 12646
in@@ 12536
p@@ 12510
are 12224
was 12017
for 11442
er 11427
an 11245
d@@ 10878
y@@ 10808
have 10660
they 10184
al 10126
-- 9893
r@@ 9758
with 9680
or 9666
m@@ 9571
be 9514
t 9370
i@@ 9360
at 9252
o@@ 9169
can 9119
as 9065
? 9060
one 8919
&apos;t 8728
ar@@ 8704
re@@ 8671
what 8620
all 8598
So 8510
about 8375
-@@ 8346
al@@ 8249
ly 8126
at@@ 8116
en@@ 7996
d 7925
a@@ 7900
n@@ 7860
k@@ 7771
g@@ 7514
not 7454
u@@ 7409
th@@ 7313
er@@ 7266
: 7209
st@@ 7191
en 7175
S@@ 7047
as@@ 6945
do 6866
ation 6784
e 6708
there 6691
h 6659
&apos;re 6612
it@@ 6606
It 6515
ch@@ 6504
un@@ 6465
or@@ 6448
my 6351
people 6344
like 6311
ity 6231
de@@ 6203
ers 6074
from 6067
tr@@ 6020
M@@ 5972
so 5959
ex@@ 5935
our 5894
ic@@ 5846
el@@ 5759
out 5736
an@@ 5634
n 5600
but 5593
on@@ 5489
le@@ 5483
li@@ 5361
di@@ 5310
k 5308
just 5289
sh@@ 5209
ic 5145
We 5138
ent 5086
The 5037
But 5035
very 4976
these 4902
em@@ 4896
me 4880
A@@ 4879
if 4824
he 4812
us 4805
is@@ 4788
se@@ 4779
ur@@ 4760
by 4725
pl@@ 4712
v@@ 4659
et@@ 4659
them 4617
up 4602
know 4496
going 4473
more 4455
ap@@ 4434
ent@@ 4366
im@@ 4336
O@@ 4299
gr@@ 4298
ate 4262
ma@@ 4259
ad@@ 4243
am@@ 4242
when 4238
had 4233
because 4221
ul@@ 4158
thing 4156
ar 4126
how 4067
get 4056
D@@ 4056
ac@@ 4055
C@@ 4048
see 4027
E@@ 4025
ies 3990
were 3989
p 3956
their 3950
con@@ 3942
think 3916
om@@ 3916
ou@@ 3907
your 3893
who 3875
P@@ 3863
B@@ 3859
op@@ 3851
et 3851
which 3834
really 3831
ive 3831
ure 3825
would 3802
il@@ 3762
&apos;ve 3629
H@@ 3620
ion 3607
ds 3599
ks 3577
here 3477
ot@@ 3475
&apos;m 3471
time 3467
ad 3457
pr@@ 3447
way 3442
where 3437
L@@ 3426
ence 3425
king 3412
str@@ 3409
You 3409
age 3397
T@@ 3367
has 3366
ter@@ 3356
world 3353
act@@ 3317
ol@@ 3309
os@@ 3302
ag@@ 3301
se 3297
then 3273
This 3264
able 3262
oc@@ 3256
sp@@ 3248
us@@ 3222
cl@@ 3217
le 3202
don 3186
j@@ 3181
ta@@ 3176
into 3173
some 3159
wor@@ 3158
actually 3149
ig@@ 3141
est 3118
res@@ 3109
th 3081
qu@@ 3065
F@@ 3043
R@@ 3021
other 3015
years 3015
ri@@ 3012
now 3008
m 2977
br@@ 2955
will 2926
iv@@ 2921
things 2913
ions 2912
ph@@ 2901
me@@ 2895
ely 2890
per@@ 2883
go 2873
ow@@ 2851
ce 2831
could 2828
N@@ 2826
be@@ 2824
ect@@ 2811
want 2791
W@@ 2784
ab@@ 2781
ne@@ 2777
ch 2762
Now 2758
1@@ 2752
ents 2746
been 2708
G@@ 2706
for@@ 2678
su@@ 2671
They 2670
make 2662
ra@@ 2636
ally 2634
com@@ 2632
oun@@ 2617
ice 2614
ine 2592
ge 2581
most 2565
ked 2559
es@@ 2539
ical 2538
ut@@ 2512
l 2500
ir@@ 2477
wh@@ 2475
our@@ 2469
said 2460
work 2460
ev@@ 2430
than 2424
ated 2407
right 2406
ay 2405
something 2401
over 2395
av@@ 2392
uc@@ 2380
ous 2360
bl@@ 2346
ess@@ 2338
ow 2326
no 2315
g 2312
I@@ 2301
even 2299
ite 2295
first 2284
and@@ 2282
new 2280
those 2278
id@@ 2266
back 2251
ec@@ 2246
much 2239
two 2223
got 2216
ded 2204
also 2201
all@@ 2196
J@@ 2179
his 2167
gu@@ 2158
ans 2152
little 2147
look 2131
um@@ 2105
ment 2100
ess 2080
In 2079
if@@ 2075
That 2074
f 2066
ist@@ 2060
comp@@ 2054
z@@ 2049
si@@ 2047
old 2046
say 2041
she 2032
x@@ 2031
ome 2029
we@@ 2021
life 2019
ther 2019
ed@@ 2016
What 2013
mo@@ 2012
ard 1993
ts 1976
many 1960
only 1960
min@@ 1957
her 1957
ble 1953
x 1951
buil@@ 1923
ob@@ 1921
il 1918
A 1917
need 1912
take 1911
dr@@ 1905
sc@@ 1899
cr@@ 1896
w 1894
its 1887
he@@ 1885
ant@@ 1862
Th@@ 1859
rec@@ 1849
est@@ 1845
any 1842
around 1841
te@@ 1832
pi@@ 1822
own 1821
als 1809
kind 1805
day 1805
end 1804
♫ 1783
lot 1772
ear@@ 1770
fl@@ 1769
come 1766
ding 1763
ill@@ 1759
different 1750
am 1743
art@@ 1738
ning 1725
bi@@ 1722
There 1717
use 1709
good 1698
par@@ 1697
int@@ 1697
did 1694
every@@ 1694
&apos;ll 1693
pro@@ 1683
pre@@ 1666
ever 1655
ight 1648
sur@@ 1645
ood 1642
down 1636
end@@ 1632
ast 1631
ant 1608
ook 1603
o 1603
through 1601
; 1600
sol@@ 1595
fe@@ 1590
b 1585
ast@@ 1569
every 1568
oo@@ 1564
being 1564
car@@ 1560
ect 1558
tur@@ 1558
0@@ 1552
same 1548
rel@@ 1542
ell@@ 1540
ations 1536
ating 1532
ber 1530
igh@@ 1530
ain@@ 1529
el 1523
K@@ 1513
ful 1512
att@@ 1510
Y@@ 1501
body 1500
lear@@ 1496
tion 1496
He 1495
put 1491
ors 1486
bec@@ 1476
side 1473
Ch@@ 1471
Well 1471
ong 1471
ional 1463
inter@@ 1463
ary 1460
happen@@ 1449
If 1446
doing 1445
ion@@ 1445
ous@@ 1438
over@@ 1430
any@@ 1427
ays 1419
ame 1417
au@@ 1410
cor@@ 1401
bo@@ 1394
self 1394
ough 1393
bas@@ 1386
to@@ 1380
pe@@ 1377
ets 1370
2@@ 1368
mon@@ 1363
percent 1358
ver@@ 1356
talk 1355
pos@@ 1348
og@@ 1342
ke 1342
made 1334
ci@@ 1331
called 1330
vi@@ 1328
ing@@ 1327
ons 1324
ned 1322
&apos;d 1321
ance 1318
ities 1308
ple 1306
three 1304
cre@@ 1298
change 1296
ory 1296
pic@@ 1294
Wh@@ 1289
sm@@ 1287
ist 1282
ave 1279
sim@@ 1278
find 1277
ates 1273
try 1270
iz@@ 1266
fr@@ 1254
c 1253
der 1252
year 1247
human 1246
sen@@ 1244
well 1237
no@@ 1234
sy@@ 1231
dis@@ 1230
why 1225
eng@@ 1223
.@@ 1219
red 1218
des@@ 1217
tal@@ 1215
tell 1210
fin@@ 1202
ty 1201
ose 1196
fact 1195
po@@ 1194
kes 1189
used 1189
ste@@ 1180
ars 1178
TED 1178
ems 1176
today 1176
ay@@ 1169
didn 1167
tim@@ 1164
started 1161
ace 1160
ces 1159
with@@ 1159
great 1158
let 1150
idea 1146
col@@ 1141
ically 1139
ound 1134
pat@@ 1133
ics 1129
wr@@ 1125
after 1122
should 1119
res 1119
mov@@ 1119
der@@ 1119
ici@@ 1117
az@@ 1114
In@@ 1111
better 1109
hav@@ 1109
ings 1102
ep@@ 1102
gre@@ 1100
fa@@ 1095
ia 1092
ass@@ 1092
spec@@ 1090
off 1086
might 1084
before 1080
st 1078
nat@@ 1078
thought 1075
gen@@ 1075
happ@@ 1075
last 1075
loo@@ 1071
give 1071
acc@@ 1071
fam@@ 1071
man@@ 1070
big 1070
ot 1064
ase 1062
5 1062
important 1060
ove 1059
olog@@ 1057
ach@@ 1056
hear@@ 1056
another 1053
ture 1051
om 1049
Thank 1048
never 1048
ago 1047
aw@@ 1047
,000 1041
went 1039
stud@@ 1038
place 1036
ile 1034
system 1027
still 1023
contr@@ 1022
coun@@ 1017
tri@@ 1016
St@@ 1015
problem 1012
ese 1011
stu@@ 1011
ily 1009
brain 1009
water 1005
bil@@ 1002
commun@@ 1001
real@@ 1001
U@@ 1001
part 999
him 998
vis@@ 997
bit 997
start 990
ands 989
un 989
vir@@ 987
ke@@ 985
part@@ 984
oll@@ 984
next 983
together 983
ust 982
read@@ 980
tre@@ 979
ps 975
ue 974
course 974
ists 974
story 972
imag@@ 972
num@@ 972
know@@ 971
aut@@ 968
Al@@ 967
od@@ 962
ep 958
ris@@ 957
ition 957
ying 957
pa@@ 955
id 955
interest@@ 952
came 952
When 950
0 942
co@@ 942
trans@@ 942
jo@@ 940
few 939
ro@@ 939
beg@@ 938
can@@ 937
r 937
V@@ 933
sion 933
go@@ 932
fun@@ 932
19@@ 932
using 932
How 929
less 927
each 925
ial 922
eb@@ 921
show 919
e-@@ 917
man 911
fi@@ 910
form@@ 907
ution 905
cer@@ 903
ain 903
op 903
ope 903
again 902
does 902
mar@@ 901
&apos; 899
sk@@ 897
women 894
too 893
ire 892
between 892
ell 888
produc@@ 888
shi@@ 888
ack 885
4@@ 885
data 885
possi@@ 884
ects 883
technology 883
mean 882
liv@@ 882
af@@ 881
plan@@ 879
act 875
point 875
ter 873
bre@@ 873
3@@ 872
rap@@ 871
ov@@ 870
cent@@ 869
ide@@ 869
bu@@ 866
mus@@ 866
ms 863
looking 862
sci@@ 860
ere 859
ows 859
found 856
ach 849
ots 849
Talk 849
chang@@ 847
aying 846
ft 846
done 843
dre@@ 842
wanted 840
Un@@ 840
question 840
ore 838
doesn 838
la@@ 837
ative 835
sort 834
ize 833
ves 832
light 831
spe@@ 830
rem@@ 830
disc@@ 829
long 828
example 827
children 826
mil@@ 826
ater 824
working 823
some@@ 822
Because 821
ong@@ 820
ject 819
um 819
gl@@ 818
ement 816
10 814
selves 813
heal@@ 813
som@@ 812
ns 811
ids 810
itt@@ 810
ind@@ 807
giv@@ 807
gener@@ 807
de 806
les 806
reas@@ 804
ized 803
ey 803
love 803
ili@@ 801
may 800
help 797
ably 797
eff@@ 796
fri@@ 796
hum@@ 796
Subtitles 795
Transcript 795
por@@ 794
real 794
ness 794
ef@@ 793
tru@@ 792
8@@ 792
5@@ 792
proc@@ 791
secon@@ 790
inform@@ 789
million 787
away 786
always 784
out@@ 784
trying 782
ass 781
believe 780
ected 780
face 779
ted 776
understand 775
call 773
ther@@ 773
air 773
sl@@ 772
tu@@ 772
ouldn 771
up@@ 769
vol@@ 769
whole 769
ne 768
arg@@ 768
feel 768
power 767
live 767
ited 766
cur@@ 766
expl@@ 766
cap@@ 765
ill 764
country 759
econom@@ 759
! 758
ular 758
ang@@ 753
mark@@ 753
school 753
pers@@ 753
ros@@ 751
anim@@ 749
owing 748
line 746
inv@@ 745
ale 745
sup@@ 745
four 744
iness 735
abil@@ 735
so@@ 734
money 732
ones 732
off@@ 724
form 724
ism 724
prot@@ 723
ins 721
thinking 720
experi@@ 717
mom@@ 715
stor@@ 714
my@@ 714
i 714
develop@@ 713
ord@@ 711
6@@ 711
room 711
pt 711
sub@@ 704
ult 703
prov@@ 702
serv@@ 702
pen@@ 701
doll@@ 698
fut@@ 698
conn@@ 698
partic@@ 697
organ@@ 696
per 695
9@@ 694
create 694
ide 689
ve 689
ise 689
rit@@ 688
ind 684
ak 683
gover@@ 682
dic@@ 681
prob@@ 680
pub@@ 679
bus@@ 678
gett@@ 678
dem@@ 676
2 674
vent@@ 674
mis@@ 674
ug@@ 673
sa@@ 672
of@@ 670
press@@ 666
ick@@ 664
design 664
comm@@ 662
pres@@ 662
not@@ 661
the@@ 660
coll@@ 654
loc@@ 652
do@@ 652
hel@@ 652
art 650
ways 649
ment@@ 648
care 647
ans@@ 646
mat@@ 640
soci@@ 640
social 638
energ@@ 637
An@@ 635
mor@@ 635
ult@@ 634
pret@@ 630
00 628
reg@@ 627
respon@@ 624
ari@@ 623
ott@@ 619
pol@@ 618
ran@@ 616
mag@@ 616
cit@@ 611
sum@@ 611
univer@@ 610
ually 609
bor@@ 608
glob@@ 607
ack@@ 607
lan@@ 604
ak@@ 604
ol 603
sing@@ 603
7@@ 601
differ@@ 601
cu@@ 600
ser@@ 598
nor@@ 595
riv@@ 594
val@@ 592
ti@@ 591
tw@@ 590
rob@@ 590
case 588
20 587
sign@@ 586
deci@@ 585
Go@@ 580
desig@@ 577
chil@@ 577
ah 576
ff@@ 575
cos@@ 573
chan@@ 572
prof@@ 569
thr@@ 568
1 568
cell@@ 565
educ@@ 563
fig@@ 560
inst@@ 560
ool 558
spi@@ 556
leg@@ 552
te 551
lig@@ 549
pow@@ 549
50 548
cont@@ 546
med@@ 544
del@@ 543
itu@@ 542
pop@@ 542
K 542
Africa 541
Amer@@ 541
eg@@ 541
No 541
cam@@ 537
ree 537
fron@@ 535
polit@@ 533
fis@@ 533
son 533
scient@@ 532
anc@@ 532
probl@@ 532
sel@@ 530
cult@@ 530
gi@@ 526
os 522
gh@@ 521
lion 520
mem@@ 520
ade 518
tra@@ 517
ca@@ 517
lead@@ 511
lin@@ 511
New 510
du@@ 506
computer 504
S 503
20@@ 502
dia 498
succ@@ 497
4 496
ody 493
sor@@ 491
far 490
ether 489
ber@@ 489
8 488
ought 487
ina 482
start@@ 482
under@@ 479
aff@@ 477
ge@@ 476
sin@@ 476
ce@@ 474
ut 473
gir@@ 473
person@@ 472
ric@@ 471
ner 470
sec@@ 470
evol@@ 468
equ@@ 462
arch@@ 462
met@@ 462
prog@@ 461
’ 460
fer@@ 459
&#91; 459
&#93; 459
re 456
... 455
ea 454
individu@@ 454
fil@@ 453
200@@ 451
ece 451
3 450
complet@@ 449
30 446
pass@@ 446
chi@@ 442
Internet 442
ank 441
materi@@ 440
dev@@ 439
incre@@ 437
Ar@@ 436
gg@@ 434
app@@ 433
hap@@ 432
utt@@ 430
arr@@ 430
quest@@ 429
fac@@ 424
incredi@@ 423
cond@@ 423
fre@@ 423
clim@@ 420
— 420
del 417
imp@@ 414
oug@@ 414
natur@@ 413
9 411
wom@@ 408
ard@@ 407
underst@@ 407
ve@@ 401
sic@@ 400
ie 399
state 397
aid 397
dam@@ 396
ht 396
sue 395
ole 394
7 394
ner@@ 394
qual@@ 393
ud@@ 392
ee 390
oce@@ 389
video 388
America 387
100 379
Br@@ 379
cat@@ 377
ific@@ 377
stat@@ 376
sch@@ 376
D 374
rac@@ 371
ust@@ 371
u 369
port@@ 368
innov@@ 368
mic@@ 366
cas@@ 365
hi@@ 361
opport@@ 359
lim@@ 359
lif@@ 358
inc@@ 356
fu@@ 355
mot@@ 354
ever@@ 353
neur@@ 353
ai@@ 352
comput@@ 351
ane 350
ten@@ 350
mer@@ 348
trem@@ 347
dig@@ 346
cir@@ 346
fort@@ 345
men@@ 345
mess@@ 345
6 343
ogn@@ 342
oper@@ 341
diffic@@ 340
pot@@ 339
tem@@ 337
non@@ 336
ute 334
dist@@ 334
mos@@ 333
V 332
ordin@@ 332
beli@@ 332
dur@@ 331
fel@@ 331
viol@@ 329
plic@@ 329
wit@@ 328
ens@@ 328
technolog@@ 327
ustr@@ 326
cour@@ 326
mol@@ 326
tel@@ 323
ub@@ 323
alk 322
otog@@ 322
decis@@ 320
Con@@ 319
creat@@ 317
era 315
bel@@ 314
sist@@ 312
bar@@ 309
iver@@ 307
far@@ 307
ben@@ 301
pu@@ 299
contin@@ 296
aver@@ 295
prop@@ 294
media 293
present@@ 289
T 288
ni@@ 288
int 288
ye@@ 288
cis@@ 286
abor@@ 285
da 282
ople 281
entr@@ 281
defin@@ 279
ren@@ 277
consi@@ 275
peri@@ 273
lu@@ 272
posit@@ 268
flu@@ 267
year@@ 264
ich@@ 263
wi@@ 262
ban@@ 261
Z@@ 260
z 260
prim@@ 255
amb@@ 255
nec@@ 253
gli@@ 250
inn@@ 250
que 250
compl@@ 249
M 248
P 247
Be@@ 246
la 245
super@@ 243
ero 241
ld 241
C 239
distr@@ 239
ost@@ 237
G 236
perc@@ 233
dom@@ 232
diver@@ 232
centr@@ 232
viv@@ 230
fine 229
tech@@ 229
Afr@@ 228
org@@ 227
ich 227
♪ 226
ause 222
B 219
exam@@ 217
model@@ 214
Ne@@ 214
devel@@ 212
,@@ 210
mal@@ 210
program@@ 205
call@@ 202
ho 202
eme 200
ir 199
mi@@ 199
eve 197
pros@@ 197
want@@ 194
dio 193
O 192
ma 192
erg@@ 192
princi@@ 191
tra 190
pens@@ 188
stem 187
agn@@ 186
det@@ 186
Gr@@ 184
cin@@ 182
ould 181
continu@@ 178
sia 178
amp@@ 178
R 176
import@@ 176
ana 176
bile 175
io 175
TE@@ 175
ven@@ 174
tor@@ 174
nu@@ 173
fore 173
sal@@ 173
vic@@ 172
ultim@@ 170
alc@@ 168
fir@@ 166
fant@@ 164
Per@@ 163
ta 163
ene 162
eri@@ 159
ret@@ 157
don@@ 157
zz@@ 156
/ 155
ett@@ 154
ica 154
cal@@ 154
sent@@ 154
gn@@ 148
agg@@ 146
oday 145
atter@@ 143
acci@@ 141
sett@@ 140
net 140
ung@@ 140
pun@@ 138
tit@@ 136
oom 136
ha 136
sul@@ 136
&apos;@@ 133
thin@@ 132
fic@@ 131
econ@@ 130
insi@@ 130
occu@@ 127
Ab@@ 126
capac@@ 126
attr@@ 124
anz@@ 124
quot@@ 122
L 121
lav@@ 121
pon@@ 121
ram@@ 120
asp@@ 119
arriv@@ 117
gra@@ 116
E 116
fos@@ 115
H 115
na 114
oto 114
ogg@@ 114
anda 114
aria 114
oul@@ 113
F 110
abb@@ 109
rim@@ 108
inci@@ 108
trop@@ 106
tec@@ 106
X@@ 106
co 106
Inter@@ 105
ico 104
ai 104
Qu@@ 103
rig@@ 103
nel 102
propr@@ 101
pag@@ 100
ont@@ 99
batt@@ 97
$ 96
vel@@ 96
q 92
vide@@ 92
etter 91
ola 88
due 87
ano 87
mac@@ 85
W 84
nel@@ 84
di 84
Q@@ 81
sem@@ 81
ada 81
ques@@ 77
now@@ 77
lo 76
indi@@ 76
ness@@ 76
hi 75
dir@@ 74
N 74
- 73
libr@@ 72
guar@@ 72
Come 70
scri@@ 70
ra 68
v 68
000 67
nolog@@ 67
acqu@@ 65
iti 65
ita 64
rag@@ 62
U 61
ello 60
&@@ 59
ani 58
che 58
sar@@ 56
ete 53
X 52
rend@@ 52
fat@@ 52
fare 51
tras@@ 51
ata 51
li 51
J 50
ette 49
ari 48
una 48
ino 47
ato 46
” 46
via 45
ali 44
Y 43
script 43
trat@@ 42
“ 42
ario 41
ini 39
bo 38
é@@ 38
za 37
ro 37
ou 37
mo 37
cc@@ 36
ura 36
ittle 36
ora 35
ito 34
reb@@ 33
diff@@ 32
altr@@ 32
enz@@ 32
sa 32
dren 32
ati 32
q@@ 31
fon@@ 31
ci 30
+ 30
tro 30
azz@@ 29
Q 29
ona 29
Tran@@ 28
ca 28
erra 28
ema 28
cose 27
bis@@ 27
La 27
é 26
dice 26
uno 26
zza 26
solo 25
tut@@ 25
sper@@ 24
bamb@@ 23
ori 23
quel@@ 23
Cos@@ 23
Bec@@ 22
bet@@ 22
ambi@@ 22
elle 22
í@@ 21
si 20
titles 20
gran@@ 19
rete 19
ni 19
chi 19
# 19
nd 19
Z 18
á@@ 18
ã@@ 18
non 17
etti 17
ti 17
ei 17
con 17
uto 16
Ed 16
dal 16
trov@@ 15
izz@@ 15
mi 15
ante 15
ava 14
– 14
tog@@ 14
ono 13
nex@@ 13
pi 13
% 13
Sub@@ 13
ç@@ 13
po 12
pian@@ 12
quel 12
) 12
uro 12
apos@@ 12
@ 12
è@@ 12
emo 12
ó@@ 12
… 12
ando 12
ostr@@ 11
ll 11
eva 11
esse 11
otto 11
lem 11
oi 10
oni 10
etto 10
oro 10
sap@@ 10
iva 10
tri 10
ede 10
muc@@ 9
eta 9
esn 9
endo 9
fa 9
ween 9
enza 8
iniz@@ 8
dire 8
esi 8
= 8
j 8
indi 8
guard@@ 8
Ma 8
mia 8
cres@@ 8
oso 7
esto 7
ili 7
dove 7
ö@@ 7
sta 7
aggi@@ 7
Le 7
‘ 7
anti 6
cresc@@ 6
amo 6
imo 6
scu@@ 6
vidu@@ 6
chio 6
á 6
circa 5
ñ@@ 5
usa 5
ó 5
enzi@@ 5
agli@@ 5
avo 4
Il 4
Per 4
della 4
Tut@@ 4
asci@@ 4
eri 4
dov@@ 4
Ques@@ 4
mili@@ 4
ande 4
azi@@ 4
sopr@@ 4
pes@@ 4
อ@@ 4
oli 3
olo 3
tempo 3
( 3
nostr@@ 3
enti 3
allo 3
ü@@ 3
alle 3
ista 3
vi 3
sv@@ 3
tre 3
iche 3
à 3
anto 3
ricer@@ 3
ivo 3
í 3
etro 3
ici 3
emi 3
ché 3
^ 3
asi 3
ù 2
ù@@ 2
ï@@ 2
lui 2
amento 2
ente 2
oco 2
credo 2
esso 2
entre 2
osi 2
essi 2
uti 2
adre 2
fu 2
gli 2
lavor@@ 2
â 2
 2
 2
ô@@ 2
opo 2
parl@@ 2
ร 2
่ 2
Á@@ 2
anni 2
ismo 2
este 2
ć 2
forma 1
qui 1
dei 1
Una 1
anza 1
º@@ 1
˚ 1
É@@ 1
isti 1
arlo 1
√ 1
± 1
rius@@ 1
ā@@ 1
* 1
arsi 1
aggio 1
vita 1
anche 1
segu@@ 1
dn 1
ë@@ 1
abile 1
ø@@ 1
evo 1
abbi@@ 1
storia 1
è 1
prod@@ 1
£ 1
ย@@ 1
ย 1
€ 1
_ 1
su 1
dav@@ 1
esem@@ 1
ione 1
́ 1
æ@@ 1
¡ 1
Å@@ 1
ï 1
ä@@ 1
anno 1
¿ 1
